TRT-7000-EntropyCalibration2
input_1: 3c010a14
conv1/convolution: 3d69b8ec
conv1/BiasAdd: 3d69b8ec
bn_conv1/batchnorm/mul_1: 3e0923fc
bn_conv1/batchnorm/add_1: 3e107bb6
activation_1/Relu: 3de46676
block_1a_conv_1/convolution: 3e58b06c
block_1a_conv_1/BiasAdd: 3e58b06c
block_1a_bn_1/batchnorm/mul_1: 3e0334cc
block_1a_bn_1/batchnorm/add_1: 3db3dc7e
block_1a_relu_1/Relu: 3da066f3
block_1a_conv_2/convolution: 3d82a35a
block_1a_conv_2/BiasAdd: 3d82a35a
block_1a_bn_2/batchnorm/mul_1: 3dd2644d
block_1a_bn_2/batchnorm/add_1: 3db92edc
block_1a_conv_shortcut/convolution: 3d87b575
block_1a_conv_shortcut/BiasAdd: 3d87b575
block_1a_bn_shortcut/batchnorm/mul_1: 3de3765e
block_1a_bn_shortcut/batchnorm/add_1: 3db7695f
add_1/add: 3e27f206
block_1a_relu/Relu: 3de96b75
block_1b_conv_1/convolution: 3e30390b
block_1b_conv_1/BiasAdd: 3e30390b
block_1b_bn_1/batchnorm/mul_1: 3dba06b4
block_1b_bn_1/batchnorm/add_1: 3dae8707
block_1b_relu_1/Relu: 3da82b93
block_1b_conv_2/convolution: 3d64f291
block_1b_conv_2/BiasAdd: 3d64f291
block_1b_bn_2/batchnorm/mul_1: 3dcde946
block_1b_bn_2/batchnorm/add_1: 3db5e121
add_2/add: 3de84883
block_1b_relu/Relu: 3e0e312c
block_2a_conv_1/convolution: 3e6ddfbf
block_2a_conv_1/BiasAdd: 3e6ddfbf
block_2a_bn_1/batchnorm/mul_1: 3d9488fa
block_2a_bn_1/batchnorm/add_1: 3d88db4e
block_2a_relu_1/Relu: 3d6524ba
block_2a_conv_2/convolution: 3d1a9d15
block_2a_conv_2/BiasAdd: 3d1a9d15
block_2a_bn_2/batchnorm/mul_1: 3d9cd67c
block_2a_bn_2/batchnorm/add_1: 3d887026
block_2a_conv_shortcut/convolution: 3d937076
block_2a_conv_shortcut/BiasAdd: 3d937076
block_2a_bn_shortcut/batchnorm/mul_1: 3d81f317
block_2a_bn_shortcut/batchnorm/add_1: 3d436d4c
add_3/add: 3daab91d
block_2a_relu/Relu: 3da22f72
block_2b_conv_1/convolution: 3de026b3
block_2b_conv_1/BiasAdd: 3de026b3
block_2b_bn_1/batchnorm/mul_1: 3d81b7a0
block_2b_bn_1/batchnorm/add_1: 3d66c2d1
block_2b_relu_1/Relu: 3d7070a5
block_2b_conv_2/convolution: 3d0e5a71
block_2b_conv_2/BiasAdd: 3d0e5a71
block_2b_bn_2/batchnorm/mul_1: 3da6c882
block_2b_bn_2/batchnorm/add_1: 3d98e6bd
add_4/add: 3daef2e0
block_2b_relu/Relu: 3dbea05d
block_3a_conv_1/convolution: 3e0f5536
block_3a_conv_1/BiasAdd: 3e0f5536
block_3a_bn_1/batchnorm/mul_1: 3d8aa4cc
block_3a_bn_1/batchnorm/add_1: 3d6f0aab
block_3a_relu_1/Relu: 3d818e64
block_3a_conv_2/convolution: 3d04bf3b
block_3a_conv_2/BiasAdd: 3d04bf3b
block_3a_bn_2/batchnorm/mul_1: 3db059f7
block_3a_bn_2/batchnorm/add_1: 3d9c7b4c
block_3a_conv_shortcut/convolution: 3d416316
block_3a_conv_shortcut/BiasAdd: 3d416316
block_3a_bn_shortcut/batchnorm/mul_1: 3d64a73c
block_3a_bn_shortcut/batchnorm/add_1: 3d235629
add_5/add: 3db6515e
block_3a_relu/Relu: 3d7479ff
block_3b_conv_1/convolution: 3d853af2
block_3b_conv_1/BiasAdd: 3d853af2
block_3b_bn_1/batchnorm/mul_1: 3d93526f
block_3b_bn_1/batchnorm/add_1: 3d8a1ced
block_3b_relu_1/Relu: 3d50d128
block_3b_conv_2/convolution: 3cf01ab9
block_3b_conv_2/BiasAdd: 3cf01ab8
block_3b_bn_2/batchnorm/mul_1: 3daea205
block_3b_bn_2/batchnorm/add_1: 3dacbf4b
add_6/add: 3da3546b
block_3b_relu/Relu: 3d8b78c6
block_4a_conv_1/convolution: 3e51ec09
block_4a_conv_1/BiasAdd: 3e51ec09
block_4a_bn_1/batchnorm/mul_1: 3d989012
block_4a_bn_1/batchnorm/add_1: 3d6bc60a
block_4a_relu_1/Relu: 3d084ebb
block_4a_conv_2/convolution: 3cf7f9d4
block_4a_conv_2/BiasAdd: 3cf7f9d5
block_4a_bn_2/batchnorm/mul_1: 3da989ca
block_4a_bn_2/batchnorm/add_1: 3d88fb93
block_4a_conv_shortcut/convolution: 3dac9762
block_4a_conv_shortcut/BiasAdd: 3dac9763
block_4a_bn_shortcut/batchnorm/mul_1: 3d68bac5
block_4a_bn_shortcut/batchnorm/add_1: 3d45ca7e
add_7/add: 3dcafcb5
block_4a_relu/Relu: 3d963e0f
block_4b_conv_1/convolution: 3dd6014d
block_4b_conv_1/BiasAdd: 3dd6014d
block_4b_bn_1/batchnorm/mul_1: 3d573b44
block_4b_bn_1/batchnorm/add_1: 3d4741c9
block_4b_relu_1/Relu: 3d3761e0
block_4b_conv_2/convolution: 3d1bc477
block_4b_conv_2/BiasAdd: 3d1bc477
block_4b_bn_2/batchnorm/mul_1: 3dedda35
block_4b_bn_2/batchnorm/add_1: 3dcac01d
add_8/add: 3e0238c4
block_4b_relu/Relu: 3e12585a
output_bbox/convolution: 3e2eaf53
output_bbox/BiasAdd: 3e2f1e3b
output_cov/convolution: 3e496d62
output_cov/BiasAdd: 3e4b1779
output_cov/Sigmoid: 3c03f514
